{
  "version": "1.0",
  "truncation": null,
  "padding": null,
  "added_tokens": [
    {
      "id": 0,
      "content": "<pad>",
      "single_word": false,
      "lstrip": false,
      "rstrip": false,
      "normalized": false,
      "special": true
    },
    {
      "id": 1,
      "content": "<unk>",
      "single_word": false,
      "lstrip": false,
      "rstrip": false,
      "normalized": false,
      "special": true
    },
    {
      "id": 2,
      "content": "<bos>",
      "single_word": false,
      "lstrip": false,
      "rstrip": false,
      "normalized": false,
      "special": true
    },
    {
      "id": 3,
      "content": "<eos>",
      "single_word": false,
      "lstrip": false,
      "rstrip": false,
      "normalized": false,
      "special": true
    }
  ],
  "normalizer": null,
  "pre_tokenizer": {
    "type": "ByteLevel",
    "add_prefix_space": false,
    "trim_offsets": true,
    "use_regex": true
  },
  "post_processor": {
    "type": "ByteLevel",
    "add_prefix_space": true,
    "trim_offsets": true,
    "use_regex": true
  },
  "decoder": {
    "type": "ByteLevel",
    "add_prefix_space": true,
    "trim_offsets": true,
    "use_regex": true
  },
  "model": {
    "type": "BPE",
    "dropout": null,
    "unk_token": "<unk>",
    "continuing_subword_prefix": null,
    "end_of_word_suffix": null,
    "fuse_unk": false,
    "byte_fallback": false,
    "ignore_merges": false,
    "vocab": {
      "<pad>": 0,
      "<unk>": 1,
      "<bos>": 2,
      "<eos>": 3,
      "!": 4,
      "\"": 5,
      "#": 6,
      "$": 7,
      "%": 8,
      "&": 9,
      "'": 10,
      "(": 11,
      ")": 12,
      "*": 13,
      "+": 14,
      ",": 15,
      "-": 16,
      ".": 17,
      "/": 18,
      "0": 19,
      "1": 20,
      "2": 21,
      "3": 22,
      "4": 23,
      "5": 24,
      "6": 25,
      "7": 26,
      "8": 27,
      "9": 28,
      ":": 29,
      ";": 30,
      "<": 31,
      "=": 32,
      ">": 33,
      "?": 34,
      "@": 35,
      "A": 36,
      "B": 37,
      "C": 38,
      "D": 39,
      "E": 40,
      "F": 41,
      "G": 42,
      "H": 43,
      "I": 44,
      "J": 45,
      "K": 46,
      "L": 47,
      "M": 48,
      "N": 49,
      "O": 50,
      "P": 51,
      "Q": 52,
      "R": 53,
      "S": 54,
      "T": 55,
      "U": 56,
      "V": 57,
      "W": 58,
      "X": 59,
      "Y": 60,
      "Z": 61,
      "[": 62,
      "\\": 63,
      "]": 64,
      "^": 65,
      "_": 66,
      "`": 67,
      "a": 68,
      "b": 69,
      "c": 70,
      "d": 71,
      "e": 72,
      "f": 73,
      "g": 74,
      "h": 75,
      "i": 76,
      "j": 77,
      "k": 78,
      "l": 79,
      "m": 80,
      "n": 81,
      "o": 82,
      "p": 83,
      "q": 84,
      "r": 85,
      "s": 86,
      "t": 87,
      "u": 88,
      "v": 89,
      "w": 90,
      "x": 91,
      "y": 92,
      "z": 93,
      "{": 94,
      "|": 95,
      "}": 96,
      "~": 97,
      "¡": 98,
      "¢": 99,
      "£": 100,
      "¤": 101,
      "¥": 102,
      "¦": 103,
      "§": 104,
      "¨": 105,
      "©": 106,
      "ª": 107,
      "«": 108,
      "¬": 109,
      "®": 110,
      "¯": 111,
      "°": 112,
      "±": 113,
      "²": 114,
      "³": 115,
      "´": 116,
      "µ": 117,
      "¶": 118,
      "·": 119,
      "¸": 120,
      "¹": 121,
      "º": 122,
      "»": 123,
      "¼": 124,
      "½": 125,
      "¾": 126,
      "¿": 127,
      "À": 128,
      "Á": 129,
      "Â": 130,
      "Ã": 131,
      "Ä": 132,
      "Å": 133,
      "Æ": 134,
      "Ç": 135,
      "È": 136,
      "É": 137,
      "Ê": 138,
      "Ë": 139,
      "Ì": 140,
      "Í": 141,
      "Î": 142,
      "Ï": 143,
      "Ð": 144,
      "Ñ": 145,
      "Ò": 146,
      "Ó": 147,
      "Ô": 148,
      "Õ": 149,
      "Ö": 150,
      "×": 151,
      "Ø": 152,
      "Ù": 153,
      "Ú": 154,
      "Û": 155,
      "Ü": 156,
      "Ý": 157,
      "Þ": 158,
      "ß": 159,
      "à": 160,
      "á": 161,
      "â": 162,
      "ã": 163,
      "ä": 164,
      "å": 165,
      "æ": 166,
      "ç": 167,
      "è": 168,
      "é": 169,
      "ê": 170,
      "ë": 171,
      "ì": 172,
      "í": 173,
      "î": 174,
      "ï": 175,
      "ð": 176,
      "ñ": 177,
      "ò": 178,
      "ó": 179,
      "ô": 180,
      "õ": 181,
      "ö": 182,
      "÷": 183,
      "ø": 184,
      "ù": 185,
      "ú": 186,
      "û": 187,
      "ü": 188,
      "ý": 189,
      "þ": 190,
      "ÿ": 191,
      "Ā": 192,
      "ā": 193,
      "Ă": 194,
      "ă": 195,
      "Ą": 196,
      "ą": 197,
      "Ć": 198,
      "ć": 199,
      "Ĉ": 200,
      "ĉ": 201,
      "Ċ": 202,
      "ċ": 203,
      "Č": 204,
      "č": 205,
      "Ď": 206,
      "ď": 207,
      "Đ": 208,
      "đ": 209,
      "Ē": 210,
      "ē": 211,
      "Ĕ": 212,
      "ĕ": 213,
      "Ė": 214,
      "ė": 215,
      "Ę": 216,
      "ę": 217,
      "Ě": 218,
      "ě": 219,
      "Ĝ": 220,
      "ĝ": 221,
      "Ğ": 222,
      "ğ": 223,
      "Ġ": 224,
      "ġ": 225,
      "Ģ": 226,
      "ģ": 227,
      "Ĥ": 228,
      "ĥ": 229,
      "Ħ": 230,
      "ħ": 231,
      "Ĩ": 232,
      "ĩ": 233,
      "Ī": 234,
      "ī": 235,
      "Ĭ": 236,
      "ĭ": 237,
      "Į": 238,
      "į": 239,
      "İ": 240,
      "ı": 241,
      "Ĳ": 242,
      "ĳ": 243,
      "Ĵ": 244,
      "ĵ": 245,
      "Ķ": 246,
      "ķ": 247,
      "ĸ": 248,
      "Ĺ": 249,
      "ĺ": 250,
      "Ļ": 251,
      "ļ": 252,
      "Ľ": 253,
      "ľ": 254,
      "Ŀ": 255,
      "ŀ": 256,
      "Ł": 257,
      "ł": 258,
      "Ń": 259,
      "Ø§": 260,
      "ÙĦ": 261,
      "Ø§ÙĦ": 262,
      "ÙĬ": 263,
      "Ùħ": 264,
      "ĠØ§ÙĦ": 265,
      "ÙĪ": 266,
      "ĠØ": 267,
      "ÙĨ": 268,
      "ĠØ§ÙĦØ": 269,
      "Ø±": 270,
      "in": 271,
      "Ġa": 272,
      "Ġt": 273,
      "ÙĬØ": 274,
      "Øª": 275,
      "ra": 276,
      "he": 277,
      "ĠÙĪ": 278,
      "ÙĤ": 279,
      "is": 280,
      "it": 281,
      "Ø§Ø": 282,
      "Ø¨": 283,
      "Ġo": 284,
      "Ġc": 285,
      "Ùĩ": 286,
      "Ġthe": 287,
      "er": 288,
      "nd": 289,
      "or": 290,
      "ØŃ": 291,
      "Ùģ": 292,
      "Ġs": 293,
      "ĠÙħ": 294,
      "ÙĬÙĨ": 295,
      "Ø©": 296,
      "ÙĬØ©": 297,
      "Ùĥ": 298,
      "ah": 299,
      "on": 300,
      "Ø¯": 301,
      "Ġf": 302,
      "Ġw": 303,
      "Bah": 304,
      "ou": 305,
      "rain": 306,
      "Bahrain": 307,
      "al": 308,
      "at": 309,
      "nt": 310,
      "Ġb": 311,
      "ĠØ§ÙĦÙħ": 312,
      "ĠØ§ÙĦØ¨": 313,
      "Ġof": 314,
      "ar": 315,
      "as": 316,
      "ed": 317,
      "es": 318,
      "ic": 319,
      "ul": 320,
      "Ø§ÙĦÙħ": 321,
      "ĠØ¨": 322,
      "ØŃØ±": 323,
      "an": 324,
      "Ø·": 325,
      "ØĮ": 326,
      "Ġh": 327,
      "ĠØ£": 328,
      "ing": 329,
      "Ġand": 330,
      "ØŃØ±ÙĬÙĨ": 331,
      "il": 332,
      "ion": 333,
      "Ø³": 334,
      "Ø¹": 335,
      "Ġd": 336,
      "Ġm": 337,
      "Ġin": 338,
      "ÙĦÙĬØ": 339,
      "ÙĩØ§": 340,
      "ĠÙħÙĨ": 341,
      "ĠØ§ÙĦØ¨ØŃØ±ÙĬÙĨ": 342,
      "ear": 343,
      "ne": 344,
      "re": 345,
      "ri": 346,
      "st": 347,
      "Ø¤": 348,
      "Ùĭ": 349,
      "Ġp": 350,
      "Ġis": 351,
      "ĠBahrain": 352,
      "Ø§ÙĨ": 353,
      "ÙĦØ¤": 354,
      "ĠØ§ÙĦØª": 355,
      "ĠØ§ÙĦØ¹": 356,
      "ct": 357,
      "ro": 358,
      "Ø²": 359,
      "Øµ": 360,
      "ĠG": 361,
      "ĠT": 362,
      "ĠÙģ": 363,
      "Ø§Øª": 364,
      "ÙĪÙĦ": 365,
      "ĠØ¹": 366,
      "Ġth": 367,
      "ĠÙĪØ§ÙĦÙħ": 368,
      "Ø§Ø¹": 369,
      "Ġcou": 370,
      "Ġdis": 371,
      "Ġcount": 372,
      "and": 373,
      "ci": 374,
      "ld": 375,
      "¯ÙĪÙĦ": 376,
      "Ø¬": 377,
      "Ø§Ø±": 378,
      "Ø§ÙĤ": 379,
      "ĠØ§ÙĦØ³": 380,
      "Ø±Ø¨": 381,
      "Ġtra": 382,
      "ĠÙĪØ§ÙĦ": 383,
      "erv": 384,
      "orld": 385,
      "Ġwas": 386,
      "ulf": 387,
      "ĠØ¨ÙĬÙĨ": 388,
      "earl": 389,
      "ries": 390,
      "ĠGulf": 391,
      "Ara": 392,
      "am": 393,
      "ce": 394,
      "der": 395,
      "en": 396,
      "ent": 397,
      "ge": 398,
      "iv": 399,
      "op": 400,
      "ric": 401,
      "tor": 402,
      "®ÙĦÙĬØ": 403,
      "¯ÙĬØ©": 404,
      "·Ø¨": 405,
      "Ø´": 406,
      "Øº": 407,
      "ĠI": 408,
      "Ġl": 409,
      "ĠÙĬ": 410,
      "ĠÙĤ": 411,
      "Ġit": 412,
      "Ġre": 413,
      "ĠAra": 414,
      "Ø§Ùģ": 415,
      "ÙĦÙĥ": 416,
      "ĠØª": 417,
      "ĠØŃ": 418,
      "ĠØ¯ÙĪÙĦ": 419,
      "ÙĨØ§Ø¹": 420,
      "ĠØ§ÙĦØ®ÙĦÙĬØ": 421,
      "inan": 422,
      "Ġan": 423,
      "Ġas": 424,
      "ÙĬØ®": 425,
      "ĠÙĪÙħ": 426,
      "ĠÙĪØª": 427,
      "ĠÙĪÙĩ": 428,
      "ÙĤÙĦÙĬØ": 429,
      "istor": 430,
      "ith": 431,
      "ity": 432,
      "Ø§Ø¯": 433,
      "Ġone": 434,
      "ÙĩØ±": 435,
      "Ġst": 436,
      "Ġserv": 437,
      "ÙĥØ§ÙĨ": 438,
      "Ġfor": 439,
      "Ġfinan": 440,
      "Ġworld": 441,
      "Ġwith": 442,
      "ous": 443,
      "ation": 444,
      "ult": 445,
      "Ġhas": 446,
      "Ġhistor": 447,
      "Ġpearl": 448,
      "ÙĦØ¤ÙĦØ¤": 449,
      "ĠØ§ÙĦØªÙĤÙĦÙĬØ": 450,
      "ĠØ§ÙĦØ¹Ø±Ø¨": 451,
      "ĠThe": 452,
      "ĠÙģÙĬ": 453,
      "Ġthat": 454,
      "Ġcountries": 455,
      "ĠArab": 456,
      "ĠØ§ÙĦØ®ÙĦÙĬØ¬": 457,
      "ĠØ§ÙĦØªÙĤÙĦÙĬØ¯ÙĬØ©": 458,
      "CO": 459,
      "ES": 460,
      "NES": 461,
      "UNES": 462,
      "ac": 463,
      "au": 464,
      "ay": 465,
      "age": 466,
      "cro": 467,
      "dit": 468,
      "et": 469,
      "gion": 470,
      "ir": 471,
      "od": 472,
      "om": 473,
      "ow": 474,
      "ost": 475,
      "ry": 476,
      "ss": 477,
      "uh": 478,
      "ura": 479,
      "uil": 480,
      "ust": 481,
      "ver": 482,
      "we": 483,
      "year": 484,
      "«ÙĤ": 485,
      "µÙĨØ§Ø¹": 486,
      "Ø£": 487,
      "Ø®": 488,
      "Ø°": 489,
      "Ùī": 490,
      "Ùı": 491,
      "ĠC": 492,
      "ĠF": 493,
      "ĠM": 494,
      "ĠS": 495,
      "Ġe": 496,
      "Ġg": 497,
      "ĠÙĥ": 498,
      "Ġric": 499,
      "ĠUNES": 500,
      "Ġyear": 501,
      "ŃØ©": 502,
      "Ø§Ùħ": 503,
      "ÙĦÙī": 504,
      "Ø§ÙĦÙĬ": 505,
      "Ø§ÙĦØ¨": 506,
      "ÙħÙĦ": 507,
      "ÙħÙĥ": 508,
      "ĠØ§ÙĦÙĨ": 509,
      "ĠØ§ÙĦÙĦØ¤ÙĦØ¤": 510,
      "ÙĪØ¯": 511,
      "ĠØ¬": 512,
      "ĠØ·Ø¨": 513,
      "Ø±ÙĬ": 514,
      "Ø±Ø§Ø": 515,
      "Ø±Ø²": 516,
      "ine": 517,
      "Ġal": 518,
      "Ġacro": 519,
      "Ġto": 520,
      "ÙĬØ«": 521,
      "ØªØ¨": 522,
      "ØªÙĩØ±": 523,
      "hes": 524,
      "ĠÙĪØ§Ø": 525,
      "ÙĤØ©": 526,
      "ÙĤØ¯": 527,
      "ÙĤØ¹": 528,
      "ish": 529,
      "ite": 530,
      "itage": 531,
      "Ø§Øµ": 532,
      "Ø§ØŃØ©": 533,
      "Ø¨Ø§ÙĨ": 534,
      "Ø¨Ø§ÙĤ": 535,
      "Ġoil": 536,
      "Ġcon": 537,
      "Ġcity": 538,
      "ors": 539,
      "ØŃÙħ": 540,
      "ÙģØ·": 541,
      "ong": 542,
      "Ø¯ÙĬÙĨ": 543,
      "Ġfro": 544,
      "Ġfish": 545,
      "all": 546,
      "Ġby": 547,
      "Ġbuil": 548,
      "ĠØ§ÙĦÙħÙĨ": 549,
      "ĠØ§ÙĦØ¨ÙĦ": 550,
      "Ø§ÙĦÙħÙĬ": 551,
      "ĠØ¨Ø£": 552,
      "Ø·Ø§Ø¹": 553,
      "ĠØ£ÙĪ": 554,
      "ĠØ£Ø±Ø²": 555,
      "ional": 556,
      "Ø¹Ø¯": 557,
      "Ġdiv": 558,
      "nect": 559,
      "ĠØ§ÙĦØªØ§Ø±": 560,
      "ĠØ§ÙĦØ¹Ø§ÙĦÙħ": 561,
      "ĠØ¹Ø§ÙĦÙħÙĬ": 562,
      "Ġdish": 563,
      "Ġcountry": 564,
      "ands": 565,
      "cial": 566,
      "cient": 567,
      "ĠØ§ÙĦØ³ÙħÙĥ": 568,
      "ĠIt": 569,
      "ĠÙĤØ·Ø§Ø¹": 570,
      "Ġits": 571,
      "Ġregion": 572,
      "Ġancient": 573,
      "ÙĬØ®ÙĬØ©": 574,
      "ĠÙĪÙĩÙĪ": 575,
      "ÙĥØ§ÙĨØª": 576,
      "Ġfinancial": 577,
      "Ġhistoric": 578,
      "Ġpearls": 579,
      "ĠØ§ÙĦØ¹Ø±Ø¨ÙĬØ©": 580,
      "ĠArabi": 581,
      "ditional": 582,
      "ural": 583,
      "«ÙĤØ§Ùģ": 584,
      "Ġrice": 585,
      "ĠUNESCO": 586,
      "ĠØ§ÙĦÙĨÙģØ·": 587,
      "ĠØ·Ø¨ÙĤ": 588,
      "Ġacross": 589,
      "Ø¨Ø§ÙĨÙĬ": 590,
      "Ġconnect": 591,
      "Ġfrom": 592,
      "ĠØ§ÙĦØªØ§Ø±ÙĬØ®ÙĬØ©": 593
    },
    "merges": [
      [
        "Ø",
        "§"
      ],
      [
        "Ù",
        "Ħ"
      ],
      [
        "Ø§",
        "ÙĦ"
      ],
      [
        "Ù",
        "Ĭ"
      ],
      [
        "Ù",
        "ħ"
      ],
      [
        "Ġ",
        "Ø§ÙĦ"
      ],
      [
        "Ù",
        "Ī"
      ],
      [
        "Ġ",
        "Ø"
      ],
      [
        "Ù",
        "Ĩ"
      ],
      [
        "ĠØ§ÙĦ",
        "Ø"
      ],
      [
        "Ø",
        "±"
      ],
      [
        "i",
        "n"
      ],
      [
        "Ġ",
        "a"
      ],
      [
        "Ġ",
        "t"
      ],
      [
        "ÙĬ",
        "Ø"
      ],
      [
        "Ø",
        "ª"
      ],
      [
        "r",
        "a"
      ],
      [
        "h",
        "e"
      ],
      [
        "Ġ",
        "ÙĪ"
      ],
      [
        "Ù",
        "Ĥ"
      ],
      [
        "i",
        "s"
      ],
      [
        "i",
        "t"
      ],
      [
        "Ø§",
        "Ø"
      ],
      [
        "Ø",
        "¨"
      ],
      [
        "Ġ",
        "o"
      ],
      [
        "Ġ",
        "c"
      ],
      [
        "Ù",
        "ĩ"
      ],
      [
        "Ġt",
        "he"
      ],
      [
        "e",
        "r"
      ],
      [
        "n",
        "d"
      ],
      [
        "o",
        "r"
      ],
      [
        "Ø",
        "Ń"
      ],
      [
        "Ù",
        "ģ"
      ],
      [
        "Ġ",
        "s"
      ],
      [
        "Ġ",
        "Ùħ"
      ],
      [
        "ÙĬ",
        "ÙĨ"
      ],
      [
        "Ø",
        "©"
      ],
      [
        "ÙĬØ",
        "©"
      ],
      [
        "Ù",
        "ĥ"
      ],
      [
        "a",
        "h"
      ],
      [
        "o",
        "n"
      ],
      [
        "Ø",
        "¯"
      ],
      [
        "Ġ",
        "f"
      ],
      [
        "Ġ",
        "w"
      ],
      [
        "B",
        "ah"
      ],
      [
        "o",
        "u"
      ],
      [
        "ra",
        "in"
      ],
      [
        "Bah",
        "rain"
      ],
      [
        "a",
        "l"
      ],
      [
        "a",
        "t"
      ],
      [
        "n",
        "t"
      ],
      [
        "Ġ",
        "b"
      ],
      [
        "ĠØ§ÙĦ",
        "Ùħ"
      ],
      [
        "ĠØ§ÙĦØ",
        "¨"
      ],
      [
        "Ġo",
        "f"
      ],
      [
        "a",
        "r"
      ],
      [
        "a",
        "s"
      ],
      [
        "e",
        "d"
      ],
      [
        "e",
        "s"
      ],
      [
        "i",
        "c"
      ],
      [
        "u",
        "l"
      ],
      [
        "Ø§ÙĦ",
        "Ùħ"
      ],
      [
        "ĠØ",
        "¨"
      ],
      [
        "ØŃ",
        "Ø±"
      ],
      [
        "a",
        "n"
      ],
      [
        "Ø",
        "·"
      ],
      [
        "Ø",
        "Į"
      ],
      [
        "Ġ",
        "h"
      ],
      [
        "ĠØ",
        "£"
      ],
      [
        "in",
        "g"
      ],
      [
        "Ġa",
        "nd"
      ],
      [
        "ØŃØ±",
        "ÙĬÙĨ"
      ],
      [
        "i",
        "l"
      ],
      [
        "i",
        "on"
      ],
      [
        "Ø",
        "³"
      ],
      [
        "Ø",
        "¹"
      ],
      [
        "Ġ",
        "d"
      ],
      [
        "Ġ",
        "m"
      ],
      [
        "Ġ",
        "in"
      ],
      [
        "ÙĦ",
        "ÙĬØ"
      ],
      [
        "Ùĩ",
        "Ø§"
      ],
      [
        "ĠÙħ",
        "ÙĨ"
      ],
      [
        "ĠØ§ÙĦØ¨",
        "ØŃØ±ÙĬÙĨ"
      ],
      [
        "e",
        "ar"
      ],
      [
        "n",
        "e"
      ],
      [
        "r",
        "e"
      ],
      [
        "r",
        "i"
      ],
      [
        "s",
        "t"
      ],
      [
        "Ø",
        "¤"
      ],
      [
        "Ù",
        "ĭ"
      ],
      [
        "Ġ",
        "p"
      ],
      [
        "Ġ",
        "is"
      ],
      [
        "Ġ",
        "Bahrain"
      ],
      [
        "Ø§",
        "ÙĨ"
      ],
      [
        "ÙĦ",
        "Ø¤"
      ],
      [
        "ĠØ§ÙĦØ",
        "ª"
      ],
      [
        "ĠØ§ÙĦØ",
        "¹"
      ],
      [
        "c",
        "t"
      ],
      [
        "r",
        "o"
      ],
      [
        "Ø",
        "²"
      ],
      [
        "Ø",
        "µ"
      ],
      [
        "Ġ",
        "G"
      ],
      [
        "Ġ",
        "T"
      ],
      [
        "Ġ",
        "Ùģ"
      ],
      [
        "Ø§",
        "Øª"
      ],
      [
        "ÙĪ",
        "ÙĦ"
      ],
      [
        "ĠØ",
        "¹"
      ],
      [
        "Ġt",
        "h"
      ],
      [
        "ĠÙĪ",
        "Ø§ÙĦÙħ"
      ],
      [
        "Ø§Ø",
        "¹"
      ],
      [
        "Ġc",
        "ou"
      ],
      [
        "Ġd",
        "is"
      ],
      [
        "Ġcou",
        "nt"
      ],
      [
        "a",
        "nd"
      ],
      [
        "c",
        "i"
      ],
      [
        "l",
        "d"
      ],
      [
        "¯",
        "ÙĪÙĦ"
      ],
      [
        "Ø",
        "¬"
      ],
      [
        "Ø§",
        "Ø±"
      ],
      [
        "Ø§",
        "ÙĤ"
      ],
      [
        "ĠØ§ÙĦØ",
        "³"
      ],
      [
        "Ø±",
        "Ø¨"
      ],
      [
        "Ġt",
        "ra"
      ],
      [
        "ĠÙĪ",
        "Ø§ÙĦ"
      ],
      [
        "er",
        "v"
      ],
      [
        "or",
        "ld"
      ],
      [
        "Ġw",
        "as"
      ],
      [
        "ul",
        "f"
      ],
      [
        "ĠØ¨",
        "ÙĬÙĨ"
      ],
      [
        "ear",
        "l"
      ],
      [
        "ri",
        "es"
      ],
      [
        "ĠG",
        "ulf"
      ],
      [
        "A",
        "ra"
      ],
      [
        "a",
        "m"
      ],
      [
        "c",
        "e"
      ],
      [
        "d",
        "er"
      ],
      [
        "e",
        "n"
      ],
      [
        "e",
        "nt"
      ],
      [
        "g",
        "e"
      ],
      [
        "i",
        "v"
      ],
      [
        "o",
        "p"
      ],
      [
        "r",
        "ic"
      ],
      [
        "t",
        "or"
      ],
      [
        "®",
        "ÙĦÙĬØ"
      ],
      [
        "¯",
        "ÙĬØ©"
      ],
      [
        "·",
        "Ø¨"
      ],
      [
        "Ø",
        "´"
      ],
      [
        "Ø",
        "º"
      ],
      [
        "Ġ",
        "I"
      ],
      [
        "Ġ",
        "l"
      ],
      [
        "Ġ",
        "ÙĬ"
      ],
      [
        "Ġ",
        "ÙĤ"
      ],
      [
        "Ġ",
        "it"
      ],
      [
        "Ġ",
        "re"
      ],
      [
        "Ġ",
        "Ara"
      ],
      [
        "Ø§",
        "Ùģ"
      ],
      [
        "ÙĦ",
        "Ùĥ"
      ],
      [
        "ĠØ",
        "ª"
      ],
      [
        "ĠØ",
        "Ń"
      ],
      [
        "ĠØ",
        "¯ÙĪÙĦ"
      ],
      [
        "ÙĨ",
        "Ø§Ø¹"
      ],
      [
        "ĠØ§ÙĦØ",
        "®ÙĦÙĬØ"
      ],
      [
        "in",
        "an"
      ],
      [
        "Ġa",
        "n"
      ],
      [
        "Ġa",
        "s"
      ],
      [
        "ÙĬØ",
        "®"
      ],
      [
        "ĠÙĪ",
        "Ùħ"
      ],
      [
        "ĠÙĪ",
        "Øª"
      ],
      [
        "ĠÙĪ",
        "Ùĩ"
      ],
      [
        "ÙĤ",
        "ÙĦÙĬØ"
      ],
      [
        "is",
        "tor"
      ],
      [
        "it",
        "h"
      ],
      [
        "it",
        "y"
      ],
      [
        "Ø§Ø",
        "¯"
      ],
      [
        "Ġo",
        "ne"
      ],
      [
        "Ùĩ",
        "Ø±"
      ],
      [
        "Ġs",
        "t"
      ],
      [
        "Ġs",
        "erv"
      ],
      [
        "Ùĥ",
        "Ø§ÙĨ"
      ],
      [
        "Ġf",
        "or"
      ],
      [
        "Ġf",
        "inan"
      ],
      [
        "Ġw",
        "orld"
      ],
      [
        "Ġw",
        "ith"
      ],
      [
        "ou",
        "s"
      ],
      [
        "at",
        "ion"
      ],
      [
        "ul",
        "t"
      ],
      [
        "Ġh",
        "as"
      ],
      [
        "Ġh",
        "istor"
      ],
      [
        "Ġp",
        "earl"
      ],
      [
        "ÙĦØ¤",
        "ÙĦØ¤"
      ],
      [
        "ĠØ§ÙĦØª",
        "ÙĤÙĦÙĬØ"
      ],
      [
        "ĠØ§ÙĦØ¹",
        "Ø±Ø¨"
      ],
      [
        "ĠT",
        "he"
      ],
      [
        "ĠÙģ",
        "ÙĬ"
      ],
      [
        "Ġth",
        "at"
      ],
      [
        "Ġcount",
        "ries"
      ],
      [
        "ĠAra",
        "b"
      ],
      [
        "ĠØ§ÙĦØ®ÙĦÙĬØ",
        "¬"
      ],
      [
        "ĠØ§ÙĦØªÙĤÙĦÙĬØ",
        "¯ÙĬØ©"
      ],
      [
        "C",
        "O"
      ],
      [
        "E",
        "S"
      ],
      [
        "N",
        "ES"
      ],
      [
        "U",
        "NES"
      ],
      [
        "a",
        "c"
      ],
      [
        "a",
        "u"
      ],
      [
        "a",
        "y"
      ],
      [
        "a",
        "ge"
      ],
      [
        "c",
        "ro"
      ],
      [
        "d",
        "it"
      ],
      [
        "e",
        "t"
      ],
      [
        "g",
        "ion"
      ],
      [
        "i",
        "r"
      ],
      [
        "o",
        "d"
      ],
      [
        "o",
        "m"
      ],
      [
        "o",
        "w"
      ],
      [
        "o",
        "st"
      ],
      [
        "r",
        "y"
      ],
      [
        "s",
        "s"
      ],
      [
        "u",
        "h"
      ],
      [
        "u",
        "ra"
      ],
      [
        "u",
        "il"
      ],
      [
        "u",
        "st"
      ],
      [
        "v",
        "er"
      ],
      [
        "w",
        "e"
      ],
      [
        "y",
        "ear"
      ],
      [
        "«",
        "ÙĤ"
      ],
      [
        "µ",
        "ÙĨØ§Ø¹"
      ],
      [
        "Ø",
        "£"
      ],
      [
        "Ø",
        "®"
      ],
      [
        "Ø",
        "°"
      ],
      [
        "Ù",
        "ī"
      ],
      [
        "Ù",
        "ı"
      ],
      [
        "Ġ",
        "C"
      ],
      [
        "Ġ",
        "F"
      ],
      [
        "Ġ",
        "M"
      ],
      [
        "Ġ",
        "S"
      ],
      [
        "Ġ",
        "e"
      ],
      [
        "Ġ",
        "g"
      ],
      [
        "Ġ",
        "Ùĥ"
      ],
      [
        "Ġ",
        "ric"
      ],
      [
        "Ġ",
        "UNES"
      ],
      [
        "Ġ",
        "year"
      ],
      [
        "Ń",
        "Ø©"
      ],
      [
        "Ø§",
        "Ùħ"
      ],
      [
        "ÙĦ",
        "Ùī"
      ],
      [
        "Ø§ÙĦ",
        "ÙĬ"
      ],
      [
        "Ø§ÙĦ",
        "Ø¨"
      ],
      [
        "Ùħ",
        "ÙĦ"
      ],
      [
        "Ùħ",
        "Ùĥ"
      ],
      [
        "ĠØ§ÙĦ",
        "ÙĨ"
      ],
      [
        "ĠØ§ÙĦ",
        "ÙĦØ¤ÙĦØ¤"
      ],
      [
        "ÙĪ",
        "Ø¯"
      ],
      [
        "ĠØ",
        "¬"
      ],
      [
        "ĠØ",
        "·Ø¨"
      ],
      [
        "Ø±",
        "ÙĬ"
      ],
      [
        "Ø±",
        "Ø§Ø"
      ],
      [
        "Ø±",
        "Ø²"
      ],
      [
        "in",
        "e"
      ],
      [
        "Ġa",
        "l"
      ],
      [
        "Ġa",
        "cro"
      ],
      [
        "Ġt",
        "o"
      ],
      [
        "ÙĬØ",
        "«"
      ],
      [
        "Øª",
        "Ø¨"
      ],
      [
        "Øª",
        "ÙĩØ±"
      ],
      [
        "he",
        "s"
      ],
      [
        "ĠÙĪ",
        "Ø§Ø"
      ],
      [
        "ÙĤ",
        "Ø©"
      ],
      [
        "ÙĤ",
        "Ø¯"
      ],
      [
        "ÙĤ",
        "Ø¹"
      ],
      [
        "is",
        "h"
      ],
      [
        "it",
        "e"
      ],
      [
        "it",
        "age"
      ],
      [
        "Ø§Ø",
        "µ"
      ],
      [
        "Ø§Ø",
        "ŃØ©"
      ],
      [
        "Ø¨",
        "Ø§ÙĨ"
      ],
      [
        "Ø¨",
        "Ø§ÙĤ"
      ],
      [
        "Ġo",
        "il"
      ],
      [
        "Ġc",
        "on"
      ],
      [
        "Ġc",
        "ity"
      ],
      [
        "or",
        "s"
      ],
      [
        "ØŃ",
        "Ùħ"
      ],
      [
        "Ùģ",
        "Ø·"
      ],
      [
        "on",
        "g"
      ],
      [
        "Ø¯",
        "ÙĬÙĨ"
      ],
      [
        "Ġf",
        "ro"
      ],
      [
        "Ġf",
        "ish"
      ],
      [
        "al",
        "l"
      ],
      [
        "Ġb",
        "y"
      ],
      [
        "Ġb",
        "uil"
      ],
      [
        "ĠØ§ÙĦÙħ",
        "ÙĨ"
      ],
      [
        "ĠØ§ÙĦØ¨",
        "ÙĦ"
      ],
      [
        "Ø§ÙĦÙħ",
        "ÙĬ"
      ],
      [
        "ĠØ¨",
        "Ø£"
      ],
      [
        "Ø·",
        "Ø§Ø¹"
      ],
      [
        "ĠØ£",
        "ÙĪ"
      ],
      [
        "ĠØ£",
        "Ø±Ø²"
      ],
      [
        "ion",
        "al"
      ],
      [
        "Ø¹",
        "Ø¯"
      ],
      [
        "Ġd",
        "iv"
      ],
      [
        "ne",
        "ct"
      ],
      [
        "ĠØ§ÙĦØª",
        "Ø§Ø±"
      ],
      [
        "ĠØ§ÙĦØ¹",
        "Ø§ÙĦÙħ"
      ],
      [
        "ĠØ¹",
        "Ø§ÙĦÙħÙĬ"
      ],
      [
        "Ġdis",
        "h"
      ],
      [
        "Ġcount",
        "ry"
      ],
      [
        "and",
        "s"
      ],
      [
        "ci",
        "al"
      ],
      [
        "ci",
        "ent"
      ],
      [
        "ĠØ§ÙĦØ³",
        "ÙħÙĥ"
      ],
      [
        "ĠI",
        "t"
      ],
      [
        "ĠÙĤ",
        "Ø·Ø§Ø¹"
      ],
      [
        "Ġit",
        "s"
      ],
      [
        "Ġre",
        "gion"
      ],
      [
        "Ġan",
        "cient"
      ],
      [
        "ÙĬØ®",
        "ÙĬØ©"
      ],
      [
        "ĠÙĪÙĩ",
        "ÙĪ"
      ],
      [
        "ÙĥØ§ÙĨ",
        "Øª"
      ],
      [
        "Ġfinan",
        "cial"
      ],
      [
        "Ġhistor",
        "ic"
      ],
      [
        "Ġpearl",
        "s"
      ],
      [
        "ĠØ§ÙĦØ¹Ø±Ø¨",
        "ÙĬØ©"
      ],
      [
        "ĠArab",
        "i"
      ],
      [
        "dit",
        "ional"
      ],
      [
        "ura",
        "l"
      ],
      [
        "«ÙĤ",
        "Ø§Ùģ"
      ],
      [
        "Ġric",
        "e"
      ],
      [
        "ĠUNES",
        "CO"
      ],
      [
        "ĠØ§ÙĦÙĨ",
        "ÙģØ·"
      ],
      [
        "ĠØ·Ø¨",
        "ÙĤ"
      ],
      [
        "Ġacro",
        "ss"
      ],
      [
        "Ø¨Ø§ÙĨ",
        "ÙĬ"
      ],
      [
        "Ġcon",
        "nect"
      ],
      [
        "Ġfro",
        "m"
      ],
      [
        "ĠØ§ÙĦØªØ§Ø±",
        "ÙĬØ®ÙĬØ©"
      ]
    ]
  }
}